<?xml version="1.0"?>
<opencv_storage>
<cascade>
  <stageType>BOOST</stageType>
  <featureType>LBP</featureType>
  <height>32</height>
  <width>32</width>
  <stageParams>
    <boostType>GAB</boostType>
    <minHitRate>9.9900001287460327e-01</minHitRate>
    <maxFalseAlarm>5.0000000000000000e-01</maxFalseAlarm>
    <weightTrimRate>9.4999999999999996e-01</weightTrimRate>
    <maxDepth>1</maxDepth>
    <maxWeakCount>100</maxWeakCount></stageParams>
  <featureParams>
    <maxCatCount>256</maxCatCount>
    <featSize>1</featSize></featureParams>
  <stageNum>25</stageNum>
  <stages>
    <!-- stage 0 -->
    <_>
      <maxWeakCount>1</maxWeakCount>
      <stageThreshold>9.0476191043853760e-01</stageThreshold>
      <weakClassifiers>
        <_>
          <internalNodes>
            0 -1 5 1964364037 -749240061 4096 -247005165 1073872896
            -2147483648 -1879048182 1921294858</internalNodes>
          <leafValues>
            -1. 9.0476191043853760e-01</leafValues></_></weakClassifiers></_>
    <!-- stage 1 -->
    <_>
      <maxWeakCount>2</maxWeakCount>
      <stageThreshold>-1.6094116866588593e-01</stageThreshold>
      <weakClassifiers>
        <_>
          <internalNodes>
            0 -1 17 -431779313 -771587831 -1874849776 -183910383
            -2042621809 1078034440 1677901963 -79438961</internalNodes>
          <leafValues>
            -9.5073890686035156e-01 9.5876288414001465e-01</leafValues></_>
        <_>
          <internalNodes>
            0 -1 19 -985538401 -536756189 9 -2063493114 -1610313565
            131073 -1073273909 1674309771</internalNodes>
          <leafValues>
            -1. 7.8979772329330444e-01</leafValues></_></weakClassifiers></_>
    <!-- stage 2 -->
    <_>
      <maxWeakCount>2</maxWeakCount>
      <stageThreshold>-2.1873863041400909e-01</stageThreshold>
      <weakClassifiers>
        <_>
          <internalNodes>
            0 -1 34 -251399393 1380040705 -2139092839 -2125987839
            -804674102 -2147340222 -1862168434 -1410874685</internalNodes>
          <leafValues>
            -9.5811516046524048e-01 7.6146787405014038e-01</leafValues></_>
        <_>
          <internalNodes>
            0 -1 21 1094812079 1397850625 1090564241 -584767483 42058482
            17563648 -779046769 -221386103</internalNodes>
          <leafValues>
            -9.8020654916763306e-01 7.9696559906005859e-01</leafValues></_></weakClassifiers></_>
    <!-- stage 3 -->
    <_>
      <maxWeakCount>2</maxWeakCount>
      <stageThreshold>-1.3991166651248932e-01</stageThreshold>
      <weakClassifiers>
        <_>
          <internalNodes>
            0 -1 0 -800128777 269027353 65802 -2130507261 -2000650103
            -935329791 -367392582 -213662453</internalNodes>
          <leafValues>
            -9.1919189691543579e-01 8.0392158031463623e-01</leafValues></_>
        <_>
          <internalNodes>
            0 -1 38 -1060822881 -800849917 3 1359020555 -402603896
            -1073741824 -1065230197 -770725238</internalNodes>
          <leafValues>
            -9.4383323192596436e-01 8.3729475736618042e-01</leafValues></_></weakClassifiers></_>
    <!-- stage 4 -->
    <_>
      <maxWeakCount>2</maxWeakCount>
      <stageThreshold>-1.8799592554569244e-01</stageThreshold>
      <weakClassifiers>
        <_>
          <internalNodes>
            0 -1 30 -1792847218 -1761410029 4104 1359003666 -1073643382
            -1068480512 1880261322 -775436082</internalNodes>
          <leafValues>
            -9.3717277050018311e-01 7.2477066516876221e-01</leafValues></_>
        <_>
          <internalNodes>
            0 -1 35 -497554709 285540491 2 822296579 -788299637
            134266880 -1316986789 1629479435</internalNodes>
          <leafValues>
            -9.1276657581329346e-01 7.5641560554504395e-01</leafValues></_></weakClassifiers></_>
    <!-- stage 5 -->
    <_>
      <maxWeakCount>2</maxWeakCount>
      <stageThreshold>-2.5985574722290039e-01</stageThreshold>
      <weakClassifiers>
        <_>
          <internalNodes>
            0 -1 15 -787758597 -1878949886 210 -783974400 -2099215728
            536870912 -1299610752 -81006069</internalNodes>
          <leafValues>
            -9.1709846258163452e-01 7.1962618827819824e-01</leafValues></_>
        <_>
          <internalNodes>
            0 -1 25 -517953856 1099038720 1073844240 2042953792
            -939360254 32768 -2105539957 -208961397</internalNodes>
          <leafValues>
            -9.7948193550109863e-01 7.1081173419952393e-01</leafValues></_></weakClassifiers></_>
    <!-- stage 6 -->
    <_>
      <maxWeakCount>2</maxWeakCount>
      <stageThreshold>-2.0606070756912231e-01</stageThreshold>
      <weakClassifiers>
        <_>
          <internalNodes>
            0 -1 29 -1879043968 -1879048176 16 -1879048064 -2147450736
            8388624 -2147446656 -1853226878</internalNodes>
          <leafValues>
            -9.5721924304962158e-01 6.9911503791809082e-01</leafValues></_>
        <_>
          <internalNodes>
            0 -1 46 -1878884158 -2147483648 32784 1346437120 -1879015296
            0 134251138 -1819574144</internalNodes>
          <leafValues>
            -9.0517574548721313e-01 8.4048622846603394e-01</leafValues></_></weakClassifiers></_>
    <!-- stage 7 -->
    <_>
      <maxWeakCount>2</maxWeakCount>
      <stageThreshold>-9.0579882264137268e-02</stageThreshold>
      <weakClassifiers>
        <_>
          <internalNodes>
            0 -1 27 -1879048000 0 4096 -805240832 -2147450752 0 32930
            -1568014208</internalNodes>
          <leafValues>
            -8.6473429203033447e-01 8.4946238994598389e-01</leafValues></_>
        <_>
          <internalNodes>
            0 -1 31 -494435107 -804650872 1073742097 286228493
            -1744662391 -1702756224 -2139094647 -1647901553</internalNodes>
          <leafValues>
            -9.1730010509490967e-01 7.7415442466735840e-01</leafValues></_></weakClassifiers></_>
    <!-- stage 8 -->
    <_>
      <maxWeakCount>2</maxWeakCount>
      <stageThreshold>-2.5190451741218567e-01</stageThreshold>
      <weakClassifiers>
        <_>
          <internalNodes>
            0 -1 40 -2146107169 -1835204411 637649247 487440525
            553658626 -246939616 -1744786995 -1089763191</internalNodes>
          <leafValues>
            -9.3617022037506104e-01 6.7857140302658081e-01</leafValues></_>
        <_>
          <internalNodes>
            0 -1 8 -1879002657 1359041557 268435815 -2059366395
            268477101 -803733504 -1744829925 -611171797</internalNodes>
          <leafValues>
            -9.3047595024108887e-01 7.5663924217224121e-01</leafValues></_></weakClassifiers></_>
    <!-- stage 9 -->
    <_>
      <maxWeakCount>2</maxWeakCount>
      <stageThreshold>-1.5686106681823730e-01</stageThreshold>
      <weakClassifiers>
        <_>
          <internalNodes>
            0 -1 32 -263987063 -1857879543 593940 1615659265 1459863815
            128 4309259 1640489610</internalNodes>
          <leafValues>
            -8.5858583450317383e-01 6.8627452850341797e-01</leafValues></_>
        <_>
          <internalNodes>
            0 -1 26 86082309 1095080193 -2147479543 -1958607291
            -1610505337 -1275060222 -1609715185 2028856331</internalNodes>
          <leafValues>
            -8.4313559532165527e-01 7.6118600368499756e-01</leafValues></_></weakClassifiers></_>
    <!-- stage 10 -->
    <_>
      <maxWeakCount>2</maxWeakCount>
      <stageThreshold>-6.6468663513660431e-02</stageThreshold>
      <weakClassifiers>
        <_>
          <internalNodes>
            0 -1 36 1124454873 -805306351 293618099 1501560896
            -805272934 -2013265918 679616959 -1687543677</internalNodes>
          <leafValues>
            -8.6069649457931519e-01 7.3737370967864990e-01</leafValues></_>
        <_>
          <internalNodes>
            0 -1 6 -1056329506 -1851186807 2130247 1363757312
            -2146958709 -2138832896 -536770389 -1140096337</internalNodes>
          <leafValues>
            -8.0384242534637451e-01 8.5144937038421631e-01</leafValues></_></weakClassifiers></_>
    <!-- stage 11 -->
    <_>
      <maxWeakCount>2</maxWeakCount>
      <stageThreshold>-2.5514635443687439e-01</stageThreshold>
      <weakClassifiers>
        <_>
          <internalNodes>
            0 -1 33 1440207005 2034541089 809505985 -1982496566
            -798885361 142672000 -268394149 -1543638610</internalNodes>
          <leafValues>
            -9.3617022037506104e-01 6.7857140302658081e-01</leafValues></_>
        <_>
          <internalNodes>
            0 -1 23 -980179177 -967147056 1392510995 -1991770112
            -922221395 1956651168 -2118074037 -89595254</internalNodes>
          <leafValues>
            -8.9946627616882324e-01 6.8102383613586426e-01</leafValues></_></weakClassifiers></_>
    <!-- stage 12 -->
    <_>
      <maxWeakCount>2</maxWeakCount>
      <stageThreshold>-3.2721081376075745e-01</stageThreshold>
      <weakClassifiers>
        <_>
          <internalNodes>
            0 -1 2 -804679677 1090539658 33856009 -1055817534
            -1876590455 696254596 805310623 -746208757</internalNodes>
          <leafValues>
            -9.0217393636703491e-01 5.6896549463272095e-01</leafValues></_>
        <_>
          <internalNodes>
            0 -1 41 -1048409634 1224737025 -2147482599 -2075717371
            -2013204478 -536215416 -1721654861 -746389240</internalNodes>
          <leafValues>
            -8.9617633819580078e-01 7.0515656471252441e-01</leafValues></_></weakClassifiers></_>
    <!-- stage 13 -->
    <_>
      <maxWeakCount>2</maxWeakCount>
      <stageThreshold>-1.5337422490119934e-01</stageThreshold>
      <weakClassifiers>
        <_>
          <internalNodes>
            0 -1 9 1527813119 -1862041016 -67108728 -1592623056
            -460800603 279447683 -1044244086 -1148778359</internalNodes>
          <leafValues>
            -8.3919596672058105e-01 6.6336631774902344e-01</leafValues></_>
        <_>
          <internalNodes>
            0 -1 28 -889110098 -126549119 72643 -582606204 -2012909091
            -2139090560 1887471761 -1962286541</internalNodes>
          <leafValues>
            -8.1674057245254517e-01 7.5137013196945190e-01</leafValues></_></weakClassifiers></_>
    <!-- stage 14 -->
    <_>
      <maxWeakCount>2</maxWeakCount>
      <stageThreshold>-4.1332298517227173e-01</stageThreshold>
      <weakClassifiers>
        <_>
          <internalNodes>
            0 -1 12 -1923118787 -586836989 1224819153 1494220804
            -752973093 813924512 -2012610523 -293076701</internalNodes>
          <leafValues>
            -9.2265194654464722e-01 5.6302523612976074e-01</leafValues></_>
        <_>
          <internalNodes>
            0 -1 13 -804433902 -1215463407 67371275 -788348928
            1082329723 -1383464951 -1744306040 -452868023</internalNodes>
          <leafValues>
            -9.7634816169738770e-01 5.5898958444595337e-01</leafValues></_></weakClassifiers></_>
    <!-- stage 15 -->
    <_>
      <maxWeakCount>2</maxWeakCount>
      <stageThreshold>-1.8834811449050903e-01</stageThreshold>
      <weakClassifiers>
        <_>
          <internalNodes>
            0 -1 7 -2147425669 -587164859 49355 -1056915005 1484886237
            -1979710656 -784264933 -338563033</internalNodes>
          <leafValues>
            -8.3999997377395630e-01 6.8000000715255737e-01</leafValues></_>
        <_>
          <internalNodes>
            0 -1 43 -964488301 -1031061504 16777280 -268238718
            -1555971966 -2147450880 -1878849406 -943341426</internalNodes>
          <leafValues>
            -8.6834812164306641e-01 7.4999302625656128e-01</leafValues></_></weakClassifiers></_>
    <!-- stage 16 -->
    <_>
      <maxWeakCount>2</maxWeakCount>
      <stageThreshold>-2.8106901049613953e-01</stageThreshold>
      <weakClassifiers>
        <_>
          <internalNodes>
            0 -1 39 -1073519137 -796851965 16782431 1091895305
            -1878990694 -1685552120 -1476374390 -1391886190</internalNodes>
          <leafValues>
            -9.1208791732788086e-01 5.5932205915451050e-01</leafValues></_>
        <_>
          <internalNodes>
            0 -1 42 -1044262537 -1727589605 1610662172 -2025511855
            -1072634383 -1979554492 -486229823 -922101369</internalNodes>
          <leafValues>
            -8.4039103984832764e-01 7.2910839319229126e-01</leafValues></_></weakClassifiers></_>
    <!-- stage 17 -->
    <_>
      <maxWeakCount>2</maxWeakCount>
      <stageThreshold>-4.4697660207748413e-01</stageThreshold>
      <weakClassifiers>
        <_>
          <internalNodes>
            0 -1 14 -1878531682 -719355769 1082195971 -639295487
            809591177 -1740505048 818465948 -348976582</internalNodes>
          <leafValues>
            -9.6363633871078491e-01 4.3703705072402954e-01</leafValues></_>
        <_>
          <internalNodes>
            0 -1 44 -247217867 -1823211511 67112981 -741432512 562082708
            -1845489280 -1472154871 -745963495</internalNodes>
          <leafValues>
            -8.8401365280151367e-01 6.0616451501846313e-01</leafValues></_></weakClassifiers></_>
    <!-- stage 18 -->
    <_>
      <maxWeakCount>2</maxWeakCount>
      <stageThreshold>-3.3126753568649292e-01</stageThreshold>
      <weakClassifiers>
        <_>
          <internalNodes>
            0 -1 20 -1055714019 1439895809 327959 -1320091136
            -1307506199 -1333657559 -1333690232 -437787894</internalNodes>
          <leafValues>
            -9.0055251121520996e-01 5.2941179275512695e-01</leafValues></_>
        <_>
          <internalNodes>
            0 -1 11 -652914083 -670039931 -1862268916 -1051358961
            -2146434588 -535231999 14680392 -130112886</internalNodes>
          <leafValues>
            -8.6067932844161987e-01 6.3539165258407593e-01</leafValues></_></weakClassifiers></_>
    <!-- stage 19 -->
    <_>
      <maxWeakCount>2</maxWeakCount>
      <stageThreshold>-1.1410309374332428e-01</stageThreshold>
      <weakClassifiers>
        <_>
          <internalNodes>
            0 -1 3 -1257705317 1145241810 268517769 -788463616
            -2145287733 -2139043840 269599171 -905214831</internalNodes>
          <leafValues>
            -8.2266008853912354e-01 6.9072163105010986e-01</leafValues></_>
        <_>
          <internalNodes>
            0 -1 49 739463955 -788201462 1073741844 1364787441
            -2146959225 0 -805244774 -1157455734</internalNodes>
          <leafValues>
            -8.0482476949691772e-01 7.7017825841903687e-01</leafValues></_></weakClassifiers></_>
    <!-- stage 20 -->
    <_>
      <maxWeakCount>2</maxWeakCount>
      <stageThreshold>-3.1842231750488281e-01</stageThreshold>
      <weakClassifiers>
        <_>
          <internalNodes>
            0 -1 37 -803675697 -654211072 16386 -1031567842 322994497
            -2063007744 424366211 1271394506</internalNodes>
          <leafValues>
            -8.6885243654251099e-01 5.0427353382110596e-01</leafValues></_>
        <_>
          <internalNodes>
            0 -1 45 285311422 -2125102973 16794003 -821624832
            -1325367247 -2113929214 587235483 -1685482855</internalNodes>
          <leafValues>
            -8.2269579172134399e-01 6.6867321729660034e-01</leafValues></_></weakClassifiers></_>
    <!-- stage 21 -->
    <_>
      <maxWeakCount>2</maxWeakCount>
      <stageThreshold>-3.4492203593254089e-01</stageThreshold>
      <weakClassifiers>
        <_>
          <internalNodes>
            0 -1 47 -1845030830 -1056956196 -1879027435 1351618689
            268468370 -2013265912 -1744822101 -661478756</internalNodes>
          <leafValues>
            -8.8505744934082031e-01 4.2857143282890320e-01</leafValues></_>
        <_>
          <internalNodes>
            0 -1 10 1092219327 -1576419322 285230591 -1249898478
            -1744535413 -2130180096 -1073511934 -1065107325</internalNodes>
          <leafValues>
            -7.7349346876144409e-01 7.2924345731735229e-01</leafValues></_></weakClassifiers></_>
    <!-- stage 22 -->
    <_>
      <maxWeakCount>2</maxWeakCount>
      <stageThreshold>-4.5736482739448547e-01</stageThreshold>
      <weakClassifiers>
        <_>
          <internalNodes>
            0 -1 16 1090908947 272695297 -2147429887 -939450104
            -1450868721 537034763 -938896533 1385938955</internalNodes>
          <leafValues>
            -9.2982459068298340e-01 4.5736435055732727e-01</leafValues></_>
        <_>
          <internalNodes>
            0 -1 18 -1869114866 16842821 537051273 1082853892
            -2075541217 -1056964608 893477507 1523558555</internalNodes>
          <leafValues>
            -9.1472917795181274e-01 5.4117161035537720e-01</leafValues></_></weakClassifiers></_>
    <!-- stage 23 -->
    <_>
      <maxWeakCount>2</maxWeakCount>
      <stageThreshold>-2.0736671984195709e-01</stageThreshold>
      <weakClassifiers>
        <_>
          <internalNodes>
            0 -1 1 1090568518 1347944795 8587273 1498087427 -1979143493
            -2146950976 -1941765624 -1609587077</internalNodes>
          <leafValues>
            -8.5641026496887207e-01 6.3809525966644287e-01</leafValues></_>
        <_>
          <internalNodes>
            0 -1 48 298131967 1518534785 1090519298 1351553173 134252705
            -2147450879 138 -901246645</internalNodes>
          <leafValues>
            -8.4546196460723877e-01 7.0939677953720093e-01</leafValues></_></weakClassifiers></_>
    <!-- stage 24 -->
    <_>
      <maxWeakCount>3</maxWeakCount>
      <stageThreshold>-1.0008314847946167e+00</stageThreshold>
      <weakClassifiers>
        <_>
          <internalNodes>
            0 -1 22 -968682741 1127223309 151126061 -654306304 956434575
            -134034255 -1474229077 -1782773239</internalNodes>
          <leafValues>
            -9.0217393636703491e-01 5.6896549463272095e-01</leafValues></_>
        <_>
          <internalNodes>
            0 -1 24 -805228398 -658406912 -2147479403 268771330 8421392
            0 -1073724790 -91742078</internalNodes>
          <leafValues>
            -7.6063466072082520e-01 8.3122390508651733e-01</leafValues></_>
        <_>
          <internalNodes>
            0 -1 4 277975681 1342210176 -1056931833 -184483836
            -1608318838 -1266646909 -1601777125 2076434462</internalNodes>
          <leafValues>
            -8.0916231870651245e-01 8.0665582418441772e-01</leafValues></_></weakClassifiers></_></stages>
  <features>
    <_>
      <rect>
        0 0 8 6</rect></_>
    <_>
      <rect>
        0 1 6 6</rect></_>
    <_>
      <rect>
        0 5 6 9</rect></_>
    <_>
      <rect>
        0 17 4 4</rect></_>
    <_>
      <rect>
        0 21 3 2</rect></_>
    <_>
      <rect>
        1 0 10 10</rect></_>
    <_>
      <rect>
        1 1 5 5</rect></_>
    <_>
      <rect>
        1 1 6 8</rect></_>
    <_>
      <rect>
        1 1 6 9</rect></_>
    <_>
      <rect>
        1 8 10 8</rect></_>
    <_>
      <rect>
        1 20 5 3</rect></_>
    <_>
      <rect>
        2 7 6 3</rect></_>
    <_>
      <rect>
        2 11 10 7</rect></_>
    <_>
      <rect>
        3 2 8 4</rect></_>
    <_>
      <rect>
        4 0 5 6</rect></_>
    <_>
      <rect>
        4 5 5 4</rect></_>
    <_>
      <rect>
        4 6 5 8</rect></_>
    <_>
      <rect>
        4 11 8 7</rect></_>
    <_>
      <rect>
        4 17 4 5</rect></_>
    <_>
      <rect>
        5 2 8 8</rect></_>
    <_>
      <rect>
        7 4 6 4</rect></_>
    <_>
      <rect>
        7 14 7 3</rect></_>
    <_>
      <rect>
        8 4 8 4</rect></_>
    <_>
      <rect>
        8 12 6 5</rect></_>
    <_>
      <rect>
        9 8 2 1</rect></_>
    <_>
      <rect>
        9 19 4 2</rect></_>
    <_>
      <rect>
        10 0 7 7</rect></_>
    <_>
      <rect>
        10 14 1 1</rect></_>
    <_>
      <rect>
        11 3 7 5</rect></_>
    <_>
      <rect>
        11 8 4 1</rect></_>
    <_>
      <rect>
        12 2 6 5</rect></_>
    <_>
      <rect>
        12 12 6 4</rect></_>
    <_>
      <rect>
        14 2 5 7</rect></_>
    <_>
      <rect>
        14 2 6 8</rect></_>
    <_>
      <rect>
        14 3 6 8</rect></_>
    <_>
      <rect>
        14 7 6 8</rect></_>
    <_>
      <rect>
        14 10 5 2</rect></_>
    <_>
      <rect>
        15 1 4 10</rect></_>
    <_>
      <rect>
        15 10 4 7</rect></_>
    <_>
      <rect>
        15 12 5 3</rect></_>
    <_>
      <rect>
        15 13 4 3</rect></_>
    <_>
      <rect>
        16 3 5 5</rect></_>
    <_>
      <rect>
        16 4 5 7</rect></_>
    <_>
      <rect>
        16 15 2 3</rect></_>
    <_>
      <rect>
        17 0 5 6</rect></_>
    <_>
      <rect>
        17 6 4 2</rect></_>
    <_>
      <rect>
        18 10 2 1</rect></_>
    <_>
      <rect>
        20 11 2 1</rect></_>
    <_>
      <rect>
        20 19 4 3</rect></_>
    <_>
      <rect>
        22 11 2 2</rect></_></features></cascade>
</opencv_storage>
